{
  "version": "1.0",
  "truncation": null,
  "padding": null,
  "added_tokens": [
    {
      "id": 0,
      "content": "<pad>",
      "single_word": false,
      "lstrip": false,
      "rstrip": false,
      "normalized": false,
      "special": true
    },
    {
      "id": 1,
      "content": "<bos>",
      "single_word": false,
      "lstrip": false,
      "rstrip": false,
      "normalized": false,
      "special": true
    },
    {
      "id": 2,
      "content": "<eos>",
      "single_word": false,
      "lstrip": false,
      "rstrip": false,
      "normalized": false,
      "special": true
    },
    {
      "id": 3,
      "content": "<unk>",
      "single_word": false,
      "lstrip": false,
      "rstrip": false,
      "normalized": false,
      "special": true
    },
    {
      "id": 4,
      "content": "<role>",
      "single_word": false,
      "lstrip": false,
      "rstrip": false,
      "normalized": false,
      "special": true
    },
    {
      "id": 5,
      "content": "<inst>",
      "single_word": false,
      "lstrip": false,
      "rstrip": false,
      "normalized": false,
      "special": true
    },
    {
      "id": 6,
      "content": "<desc>",
      "single_word": false,
      "lstrip": false,
      "rstrip": false,
      "normalized": false,
      "special": true
    }
  ],
  "normalizer": null,
  "pre_tokenizer": {
    "type": "ByteLevel",
    "add_prefix_space": true,
    "trim_offsets": true,
    "use_regex": true
  },
  "post_processor": null,
  "decoder": null,
  "model": {
    "type": "BPE",
    "dropout": null,
    "unk_token": null,
    "continuing_subword_prefix": null,
    "end_of_word_suffix": null,
    "fuse_unk": false,
    "byte_fallback": false,
    "vocab": {
      "<pad>": 0,
      "<bos>": 1,
      "<eos>": 2,
      "<unk>": 3,
      "<role>": 4,
      "<inst>": 5,
      "<desc>": 6,
      "1": 7,
      "6": 8,
      "8": 9,
      "<": 10,
      ">": 11,
      "a": 12,
      "b": 13,
      "c": 14,
      "d": 15,
      "e": 16,
      "f": 17,
      "g": 18,
      "h": 19,
      "i": 20,
      "k": 21,
      "l": 22,
      "m": 23,
      "n": 24,
      "o": 25,
      "p": 26,
      "q": 27,
      "r": 28,
      "s": 29,
      "t": 30,
      "u": 31,
      "v": 32,
      "w": 33,
      "x": 34,
      "y": 35,
      "z": 36,
      "¡": 37,
      "¢": 38,
      "£": 39,
      "¤": 40,
      "¥": 41,
      "¦": 42,
      "§": 43,
      "¨": 44,
      "©": 45,
      "ª": 46,
      "«": 47,
      "¬": 48,
      "®": 49,
      "¯": 50,
      "°": 51,
      "±": 52,
      "²": 53,
      "³": 54,
      "´": 55,
      "µ": 56,
      "¶": 57,
      "·": 58,
      "¸": 59,
      "¹": 60,
      "º": 61,
      "»": 62,
      "¼": 63,
      "½": 64,
      "¾": 65,
      "¿": 66,
      "ã": 67,
      "ä": 68,
      "å": 69,
      "æ": 70,
      "ç": 71,
      "è": 72,
      "é": 73,
      "ï": 74,
      "Ġ": 75,
      "Ģ": 76,
      "ģ": 77,
      "Ĥ": 78,
      "ĥ": 79,
      "Ħ": 80,
      "ħ": 81,
      "Ĩ": 82,
      "ĩ": 83,
      "Ī": 84,
      "ī": 85,
      "Ĭ": 86,
      "ĭ": 87,
      "Į": 88,
      "į": 89,
      "İ": 90,
      "ı": 91,
      "Ĳ": 92,
      "ĳ": 93,
      "Ĵ": 94,
      "ĵ": 95,
      "Ķ": 96,
      "ķ": 97,
      "ĸ": 98,
      "Ĺ": 99,
      "ĺ": 100,
      "Ļ": 101,
      "ļ": 102,
      "Ľ": 103,
      "ľ": 104,
      "Ŀ": 105,
      "ŀ": 106,
      "Ł": 107,
      "ł": 108,
      "Ń": 109,
      "Ġ<": 110,
      "os": 111,
      "le": 112,
      "ro": 113,
      "bos": 114,
      "eos": 115,
      "role": 116,
      "in": 117,
      "st": 118,
      "inst": 119,
      "de": 120,
      "sc": 121,
      "desc": 122,
      "Ġc": 123,
      "Ġå": 124,
      "or": 125,
      "çĲ": 126,
      "çĲ´": 127,
      "¼Į": 128,
      "ï¼Į": 129,
      "hor": 130,
      "hord": 131,
      "Ġchord": 132,
      "¢çĲ´": 133,
      "éĴ": 134,
      "éĴ¢çĲ´": 135,
      "å£": 136,
      "å£°": 137,
      "el": 138,
      "dy": 139,
      "mel": 140,
      "ody": 141,
      "Ġmel": 142,
      "Ġmelody": 143,
      "ck": 144,
      "ĠéĴ¢çĲ´": 145,
      "ba": 146,
      "ss": 147,
      "bass": 148,
      "Ġç": 149,
      "Ġæ": 150,
      "Ġp": 151,
      "Ġbass": 152,
      "Ķµ": 153,
      "ick": 154,
      "er": 155,
      "çļ": 156,
      "çļĦ": 157,
      "kick": 158,
      "Ġs": 159,
      "¥³": 160,
      "Ķå": 161,
      "¥³å£°": 162,
      "Ġå¥³å£°": 163,
      "éŁ": 164,
      "éŁ³": 165,
      "ĠçĶµ": 166,
      "Ġkick": 167,
      "erc": 168,
      "ar": 169,
      "æĦ": 170,
      "Ġåİ": 171,
      "æĦŁ": 172,
      "lu": 173,
      "Ķ±": 174,
      "luck": 175,
      "ĠçĶµéĴ¢çĲ´": 176,
      "¼Ķå": 177,
      "æ¼Ķå": 178,
      "Łå£°": 179,
      "Ġperc": 180,
      "æ¼ĶåĶ±": 181,
      "ĠåİŁå£°": 182,
      "ä¸": 183,
      "Ġå¥³å£°æ¼ĶåĶ±": 184,
      "nar": 185,
      "nare": 186,
      "ad": 187,
      "Ġpluck": 188,
      "Ġé": 189,
      "at": 190,
      "Ġè": 191,
      "Ġf": 192,
      "ĵå": 193,
      "Ġsnare": 194,
      "ĠåĲ": 195,
      "åĪ": 196,
      "éĢ": 197,
      "çļĦp": 198,
      "lead": 199,
      "å°": 200,
      "è½": 201,
      "ŃĲ": 202,
      "åĪĨ": 203,
      "hi": 204,
      "·å": 205,
      "Ġfx": 206,
      "ap": 207,
      "hat": 208,
      "½İ": 209,
      "ä½İ": 210,
      "çİ": 211,
      "Ġhi": 212,
      "Ġhihat": 213,
      "®ŀ": 214,
      "åĬ": 215,
      "²å": 216,
      "··å": 217,
      "åĽ": 218,
      "ĵį": 219,
      "éĢŁ": 220,
      "··åĵį": 221,
      "¬¦": 222,
      "³¢": 223,
      "»ĸ": 224,
      "ä»ĸ": 225,
      "æ³¢": 226,
      "ç¼": 227,
      "ç¬¦": 228,
      "é¢": 229,
      "īä»ĸ": 230,
      "ĭ¥": 231,
      "éŁ³ç¬¦": 232,
      "åĪĨéŁ³ç¬¦": 233,
      "lap": 234,
      "om": 235,
      "th": 236,
      "åŃĲ": 237,
      "æ°": 238,
      "ĴĮ": 239,
      "Ġsu": 240,
      "²åĩ": 241,
      "aw": 242,
      "«éĢŁ": 243,
      "¿«éĢŁ": 244,
      "å¼": 245,
      "æĪ": 246,
      "éĵ": 247,
      "Ġå¼": 248,
      "»ĵå": 249,
      "çĶµ": 250,
      "ŁĶ": 251,
      "Ġç»ĵå": 252,
      "Ġæ¸": 253,
      "Ġç»ĵå®ŀ": 254,
      "·å£°": 255,
      "åĻ": 256,
      "èĭ¥": 257,
      "Ġr": 258,
      "Ķ·å£°": 259,
      "ĽåĽ": 260,
      "ĠçĶ·å£°": 261,
      "Ġè¿": 262,
      "çļĦpluck": 263,
      "å°¾": 264,
      "åĬĽ": 265,
      "ĽåĽ´": 266,
      "16": 267,
      "bo": 268,
      "on": 269,
      "Ġg": 270,
      "ŁĶå": 271,
      "Ġcom": 272,
      "ĠåĲĪ": 273,
      "é¢ĳ": 274,
      "æ°Ķ": 275,
      "æĪĲ": 276,
      "ŁĶåĴĮ": 277,
      "Ġcombo": 278,
      "per": 279,
      "saw": 280,
      "°æĦŁ": 281,
      "¹æ": 282,
      "¼ĵ": 283,
      "äº": 284,
      "å¿«éĢŁ": 285,
      "æĻ": 286,
      "é¼ĵ": 287,
      "Ġw": 288,
      "Ġæ··åĵį": 289,
      "ĠåĲīä»ĸ": 290,
      "å¼¦": 291,
      "Ġå¼¹æ": 292,
      "persaw": 293,
      "hy": 294,
      "it": 295,
      "¹²åĩ": 296,
      "æ¸": 297,
      "æ»": 298,
      "æķ": 299,
      "Ġt": 300,
      "Ġåı": 301,
      "thm": 302,
      "Ġsupersaw": 303,
      "Ġrhy": 304,
      "Ġè¿ĩ": 305,
      "æ°ĶæĦŁ": 306,
      "¹²åĩĢ": 307,
      "Ġrhythm": 308,
      "an": 309,
      "cor": 310,
      "ion": 311,
      "snare": 312,
      "°ĽåĽ´": 313,
      "¹Ĳ": 314,
      "¹ç¼": 315,
      "ä¹Ĳ": 316,
      "åı": 317,
      "æī": 318,
      "çĤ": 319,
      "è¿": 320,
      "èĥ": 321,
      "Ġb": 322,
      "Ġde": 323,
      "Ġlead": 324,
      "Ġ16": 325,
      "ıĲ": 326,
      "ķ¿": 327,
      "Ġæľ": 328,
      "Ġæ°ĽåĽ´": 329,
      "éŁ³æķ": 330,
      "ä¸ĭ": 331,
      "ation": 332,
      "Ġæ¸ħ": 333,
      "åĻ¨": 334,
      "coration": 335,
      "¹ç¼Ģ": 336,
      "çĤ¹ç¼Ģ": 337,
      "Ġdecoration": 338,
      "ıĲçĲ´": 339,
      "éŁ³æķĪ": 340,
      "al": 341,
      "mba": 342,
      "ymba": 343,
      "¢°æĦŁ": 344,
      "©æ": 345,
      "«ĺ": 346,
      "ºæ": 347,
      "»ç": 348,
      "½çĶµ": 349,
      "¾Ī": 350,
      "æľ": 351,
      "æŀ": 352,
      "éļ": 353,
      "Ġä½İ": 354,
      "ĥéĵ": 355,
      "ĥæ°ĶæĦŁ": 356,
      "ħĥæ°ĶæĦŁ": 357,
      "ĮæĻ": 358,
      "įĩ": 359,
      "Ĳèĭ¥": 360,
      "ĳåĬĽ": 361,
      "Ġcymba": 362,
      "è½½çĶµ": 363,
      "çİ°": 364,
      "çİ»ç": 365,
      "Ġè¿ĩè½½çĶµ": 366,
      "ºæ¢°æĦŁ": 367,
      "éļĲèĭ¥": 368,
      "ĮæĻ¯": 369,
      "Ġcymbal": 370,
      "çİ»çĴ": 371,
      "éļĲèĭ¥çİ°": 372,
      "lit": 373,
      "©º": 374,
      "ºå£°": 375,
      "åĲ": 376,
      "èĦ": 377,
      "é«ĺ": 378,
      "Ġä¸": 379,
      "ĭç¼": 380,
      "Ġclap": 381,
      "Ġå¹²åĩĢ": 382,
      "Ġæĸ": 383,
      "ĠæŁĶåĴĮ": 384,
      "Ġé¢": 385,
      "ĠåĲĪæĪĲ": 386,
      "äººå£°": 387,
      "ķ¿å°¾": 388,
      "Ġæ¸ħèĦ": 389,
      "ĭç¼©": 390,
      "ĠåĲĪæĪĲåĻ¨": 391,
      "Ġæ¸ħèĦĨ": 392,
      "ag": 393,
      "is": 394,
      "re": 395,
      "³Ĭ": 396,
      "¶è": 397,
      "¶åŃĲ": 398,
      "»æĦŁ": 399,
      "åĮ": 400,
      "æ··åĵį": 401,
      "ç³Ĭ": 402,
      "éĻ": 403,
      "Ġn": 404,
      "Ģ§": 405,
      "įè½": 406,
      "İ¹": 407,
      "Ġpad": 408,
      "arp": 409,
      "arag": 410,
      "ĠåİŁå£°æŀ": 411,
      "ĵåĩ": 412,
      "éĢļ": 413,
      "å°ı": 414,
      "è½¯": 415,
      "ŁĶè½¯": 416,
      "ĠçĶ·å£°æ¼ĶåĶ±": 417,
      "Ġgarag": 418,
      "Ġå¼¹æĢ§": 419,
      "æ»ĳ": 420,
      "Ġtick": 421,
      "èĥĮæĻ¯": 422,
      "¶èİ¹": 423,
      "¶åŃĲé¼ĵ": 424,
      "éĻį": 425,
      "įè½¬": 426,
      "ĠåİŁå£°æŀ¶åŃĲé¼ĵ": 427,
      "Ġgarage": 428,
      "ass": 429,
      "bbass": 430,
      "ch": 431,
      "cal": 432,
      "do": 433,
      "im": 434,
      "ll": 435,
      "nth": 436,
      "ocal": 437,
      "rass": 438,
      "vocal": 439,
      "ynth": 440,
      "¥è¿": 441,
      "«å¼¦": 442,
      "®²": 443,
      "½»": 444,
      "¾ĭ": 445,
      "åħĥæ°ĶæĦŁ": 446,
      "åįĩ": 447,
      "æ¾Ī": 448,
      "èī": 449,
      "éĩ": 450,
      "Ġ8": 451,
      "Ġdo": 452,
      "Ġvocal": 453,
      "ģ¥è¿": 454,
      "Ĭåįĩ": 455,
      "İå¼¦": 456,
      "Ĺĵå": 457,
      "lean": 458,
      "Ġå¤": 459,
      "Ġå¾ĭ": 460,
      "ĠåĹĵå": 461,
      "ĠéĴ¢çĲ´ä¸": 462,
      "ĠæŁĶè½¯": 463,
      "Ġsynth": 464,
      "éŁ³èī": 465,
      "ĠçĶµbass": 466,
      "Ġåİĭç¼©": 467,
      "Ġéķ¿å°¾": 468,
      "Ġè½»": 469,
      "çļĦperc": 470,
      "çļĦpad": 471,
      "ŃĲåı": 472,
      "åĬ¨": 473,
      "Ġsubbass": 474,
      "çĶµåŃĲ": 475,
      "Ġglit": 476,
      "Ġåıįè½¬": 477,
      "Ġbrass": 478,
      "Ġä½İé¢ĳ": 479,
      "ĥéĵĽ": 480,
      "çİ»çĴĥ": 481,
      "åĲīä»ĸ": 482,
      "ģ¥è¿ľ": 483,
      "İå¼¦ä¹Ĳ": 484,
      "Ġå¾ĭåĬ¨": 485,
      "ĠåĹĵåŃĲåı": 486,
      "ĠéĴ¢çĲ´ä¸İå¼¦ä¹Ĳ": 487,
      "Ġglitch": 488,
      "ĠåĹĵåŃĲåıĳåĬĽ": 489,
      "ble": 490,
      "clap": 491,
      "fu": 492,
      "id": 493,
      "ole": 494,
      "ois": 495,
      "tu": 496,
      "uble": 497,
      "¢İ": 498,
      "¤éŁ³": 499,
      "§£": 500,
      "¨æĦŁ": 501,
      "´¨æĦŁ": 502,
      "µå£": 503,
      "¹æ³¢": 504,
      "å¨": 505,
      "åĶ±": 506,
      "å®ŀ": 507,
      "æĿ": 508,
      "æŁĶåĴĮ": 509,
      "æıĲçĲ´": 510,
      "ç»": 511,
      "è§£": 512,
      "è´¨æĦŁ": 513,
      "Ġäººå£°": 514,
      "ĢåĽ": 515,
      "Īµå£": 516,
      "īåĬĽ": 517,
      "ĭ¨": 518,
      "ķ²åĩ": 519,
      "roll": 520,
      "éĴ¢çĲ´åĪĨ": 521,
      "Ġæī": 522,
      "ĠæıĲçĲ´": 523,
      "Ġæķ²åĩ": 524,
      "ä¸ĢåĽ": 525,
      "Ġéģ¥è¿ľ": 526,
      "Ġfole": 527,
      "ä½İéĢļ": 528,
      "Ġæ¸©æ": 529,
      "èĭ¥éļĲèĭ¥çİ°": 530,
      "æĪĲä¸ĢåĽ": 531,
      "Ġå¼¹æĭ¨": 532,
      "æīĵåĩ": 533,
      "ĠæľīåĬĽ": 534,
      "Ġæ°ĽåĽ´lead": 535,
      "ä¸ĭæ»ĳ": 536,
      "æľºæ¢°æĦŁ": 537,
      "Ġè¿ĩè½½çĶµéĴ¢çĲ´": 538,
      "Ġä¸Ĭåįĩ": 539,
      "Ġæĸ¹æ³¢": 540,
      "Ġé¢¤éŁ³": 541,
      "Ġæ¸ħèĦĨçļĦpluck": 542,
      "ç³ĬæĪĲä¸ĢåĽ": 543,
      "Ġnois": 544,
      "å°ıæıĲçĲ´": 545,
      "Ġdouble": 546,
      "Ġåıįè½¬éŁ³æķĪ": 547,
      "ture": 548,
      "Īµå£«": 549,
      "éĴ¢çĲ´åĪĨè§£": 550,
      "Ġfoley": 551,
      "Ġæ¸©æŁĶ": 552,
      "ĠæľīåĬĽçļĦ": 553,
      "Ġä¸ĬåįĩçļĦ": 554,
      "Ġæĸ¹æ³¢lead": 555,
      "ç³ĬæĪĲä¸ĢåĽ¢": 556,
      "Ġnoise": 557,
      "Ġdoublebass": 558,
      "ac": 559,
      "chord": 560,
      "et": 561,
      "ft": 562,
      "gan": 563,
      "oft": 564,
      "pac": 565,
      "¤éĴ¢çĲ´": 566,
      "¤æ³¢": 567,
      "¥ı": 568,
      "ªå£°": 569,
      "®¡": 570,
      "¯é": 571,
      "¯Į": 572,
      "°å": 573,
      "±»": 574,
      "±ç": 575,
      "¶éŁ³": 576,
      "ºå": 577,
      "ºķ": 578,
      "»çİ»çĴĥ": 579,
      "½¿": 580,
      "åİ": 581,
      "å¥ı": 582,
      "ç©º": 583,
      "ç®¡": 584,
      "è¯": 585,
      "éĶ": 586,
      "Ġl": 587,
      "Ġor": 588,
      "Ġim": 589,
      "Ġroll": 590,
      "ħæ¾Ī": 591,
      "ħç»": 592,
      "Ļ¶èİ¹": 593,
      "ļĸ": 594,
      "ľŁ": 595,
      "Ġå¿«éĢŁ": 596,
      "çĲ¶éŁ³": 597,
      "Ġç©º": 598,
      "Ġç±»": 599,
      "ĠæĻ¶èİ¹": 600,
      "Ġslap": 601,
      "Ġsaw": 602,
      "Ġsoft": 603,
      "ĠçĶµåŃĲ": 604,
      "ä¸Ń": 605,
      "ä¸°å": 606,
      "Ġéĵ": 607,
      "ĠéĶ": 608,
      "Ġèĭ¥": 609,
      "æ°ĽåĽ´": 610,
      "ĴĮå£°": 611,
      "å°¾éŁ³": 612,
      "Ġwet": 613,
      "æ¸©æ": 614,
      "æ¸ħæ¾Ī": 615,
      "æ»¤æ³¢": 616,
      "Ġtom": 617,
      "Ġåı¤éĴ¢çĲ´": 618,
      "Ġæľºæ¢°æĦŁ": 619,
      "æľ¨": 620,
      "Ġè¿ĩè½½çĶµåĲīä»ĸ": 621,
      "é«ĺé¢ĳ": 622,
      "ĠæŁĶåĴĮçļĦpad": 623,
      "åĮħç»": 624,
      "Ġå¤±ç": 625,
      "éŁ³èī²": 626,
      "Ġåİĭç¼©æĦŁ": 627,
      "pact": 628,
      "¯é½¿": 629,
      "ºåºķ": 630,
      "Ġorgan": 631,
      "Ġimpact": 632,
      "ľŁkick": 633,
      "Ġç±»snare": 634,
      "ĠæĻ¶èİ¹çļĦpluck": 635,
      "Ġslapbass": 636,
      "ä¸°å¯Į": 637,
      "Ġèĭ¥éļĲèĭ¥çİ°": 638,
      "æ¸©æļĸ": 639,
      "åĮħç»ľ": 640,
      "Ġå¤±çľŁkick": 641,
      "¯é½¿æ³¢": 642,
      "bit": 643,
      "clean": 644,
      "hap": 645,
      "iq": 646,
      "kin": 647,
      "nk": 648,
      "pluck": 649,
      "uid": 650,
      "uture": 651,
      "¤§": 652,
      "¦å¨": 653,
      "®µ": 654,
      "°Ĳ": 655,
      "²ī": 656,
      "¸è": 657,
      "¸æĪ": 658,
      "¹»": 659,
      "»é¢": 660,
      "½¢": 661,
      "½å": 662,
      "å¹²åĩĢ": 663,
      "å¤§": 664,
      "å½¢": 665,
      "æł": 666,
      "æŁĶ": 667,
      "æ®µ": 668,
      "æ²ī": 669,
      "çī": 670,
      "ç¢İ": 671,
      "çĪµå£«": 672,
      "èĲ": 673,
      "è®²": 674,
      "è°Ĳ": 675,
      "Ġarp": 676,
      "ģå¤§": 677,
      "ħĶå": 678,
      "ĩæł": 679,
      "ĩçī": 680,
      "ılead": 681,
      "ıĳåĬĽ": 682,
      "ĳæ®µ": 683,
      "ĺåĮ": 684,
      "Ľŀ": 685,
      "Ŀ¦å¨": 686,
      "łå¼": 687,
      "Ńé«ĺé¢ĳ": 688,
      "Ġclean": 689,
      "Ġchap": 690,
      "Ġå¾Ī": 691,
      "Ġåħĥæ°ĶæĦŁ": 692,
      "Ġåįĩ": 693,
      "ĠåĴĮå£°": 694,
      "ĠåĽŀ": 695,
      "å£°æĦŁ": 696,
      "ell": 697,
      "çļĦkick": 698,
      "çļĦsnare": 699,
      "éŁ³éĩ": 700,
      "æĦŁçļĦperc": 701,
      "ĠåİŁå£°kick": 702,
      "ĠåİŁå£°snare": 703,
      "ä¸»é¢": 704,
      "Ġè®²": 705,
      "Ġfuture": 706,
      "åĪĩçī": 707,
      "·å¹»": 708,
      "ä½İæ²ī": 709,
      "çİ¯": 710,
      "éĢŁçļĦ": 711,
      "åĪĨéŁ³ç¬¦bass": 712,
      "éĵĥéĵĽ": 713,
      "Ġç»ĵå®ŀçļĦ": 714,
      "åĻªå£°": 715,
      "Ġè¿·å¹»": 716,
      "ĠåĲĪåĶ±": 717,
      "å¿«éĢŁåĮħç»ľ": 718,
      "æĻ¶èİ¹": 719,
      "Ġwal": 720,
      "ĠåĲīä»ĸæī": 721,
      "æ¸¸æĪ": 722,
      "è¿°æĦŁ": 723,
      "èĥ¸è": 724,
      "Ġbell": 725,
      "ä¸ĭéĻį": 726,
      "ĥéĵĥéĵĽ": 727,
      "çİ»çĴĥéĵĥéĵĽ": 728,
      "Ġä¸Ńé«ĺé¢ĳ": 729,
      "Ġå¹²åĩĢå°¾éŁ³": 730,
      "Ġæĸ½å": 731,
      "Ġé¢ĳæ®µ": 732,
      "äººå£°åĪĩçī": 733,
      "Ġæ¸ħèĦĨå®ŀ": 734,
      "éĻįèĲ": 735,
      "éĩĩæł": 736,
      "Ġsynthbass": 737,
      "Ġè½»æŁĶ": 738,
      "Ġè½»çļĦsnare": 739,
      "çĶµåŃĲæ¸¸æĪ": 740,
      "funk": 741,
      "æĿ¥": 742,
      "Ġäººå£°éĩĩæł": 743,
      "Ġæī«å¼¦": 744,
      "Ġæķ²åĩ»çİ»çĴĥ": 745,
      "Ġéģ¥è¿ľçļĦperc": 746,
      "ä½İéĢļä¸ĭéĻį": 747,
      "æīĵåĩ»æĦŁ": 748,
      "ä¸ĭæ»ĳéŁ³": 749,
      "è¯Ŀ": 750,
      "Ġliq": 751,
      "Ġå¿«éĢŁä½İéĢļä¸ĭéĻį": 752,
      "ĠéĶ¯é½¿æ³¢": 753,
      "king": 754,
      "è®²è¯Ŀ": 755,
      "è°Ĳæ³¢": 756,
      "ģå¤§éĴ¢çĲ´": 757,
      "ħĶåıĳåĬĽ": 758,
      "ĺåĮĸ": 759,
      "Ŀ¦å¨ģå¤§éĴ¢çĲ´": 760,
      "łå¼Ģ": 761,
      "Ġå¾Īç¢İ": 762,
      "ĠåĽŀå£°æĦŁ": 763,
      "éŁ³éĩı": 764,
      "ä¸»é¢ĺ": 765,
      "Ġè®²è¿°æĦŁ": 766,
      "Ġè¿·å¹»çļĦpluck": 767,
      "Ġwalking": 768,
      "ĠåĲīä»ĸæī«å¼¦": 769,
      "èĥ¸èħĶåıĳåĬĽ": 770,
      "çİ»çĴĥéĵĥéĵĽè´¨æĦŁ": 771,
      "Ġæĸ½åĿ¦å¨ģå¤§éĴ¢çĲ´": 772,
      "Ġé¢ĳæ®µä¸°å¯Į": 773,
      "äººå£°åĪĩçīĩ": 774,
      "Ġæ¸ħèĦĨå®ŀæĦŁçļĦperc": 775,
      "éĻįèĲ½": 776,
      "Ġè½»æŁĶçļĦkick": 777,
      "çĶµåŃĲæ¸¸æĪılead": 778,
      "Ġäººå£°éĩĩæł·": 779,
      "Ġliquid": 780,
      "ah": 781,
      "as": 782,
      "co": 783,
      "dim": 784,
      "en": 785,
      "fx": 786,
      "lor": 787,
      "lon": 788,
      "op": 789,
      "perc": 790,
      "rlit": 791,
      "rid": 792,
      "urlit": 793,
      "ylon": 794,
      "zer": 795,
      "¡Į": 796,
      "¡ç³Ĭ": 797,
      "£°": 798,
      "¥çļĦ": 799,
      "¦ä¹Ĳ": 800,
      "¦åĻªå£°": 801,
      "§éĵ": 802,
      "¨³": 803,
      "¨ĵ": 804,
      "¨¡ç³Ĭ": 805,
      "©¬": 806,
      "©ç©º": 807,
      "ªĦ": 808,
      "ªçİ¯": 809,
      "®ļ": 810,
      "®çĲ´": 811,
      "°ı": 812,
      "²Ĵ": 813,
      "´çĲ´": 814,
      "·´çĲ´": 815,
      "¸¦åĻªå£°": 816,
      "º¿": 817,
      "ºĦ": 818,
      "»ļ": 819,
      "»ä¹Ĳ": 820,
      "¼åĶ±": 821,
      "½ç®¡": 822,
      "¾åİ": 823,
      "¾§éĵ": 824,
      "¾ªçİ¯": 825,
      "¾½ç®¡": 826,
      "¿ĥ": 827,
      "ãĢ": 828,
      "ä¾§éĵ": 829,
      "ä¿ĥ": 830,
      "åĵ": 831,
      "å®ļ": 832,
      "å·´çĲ´": 833,
      "å¸¦åĻªå£°": 834,
      "å¾ªçİ¯": 835,
      "æ¨¡ç³Ĭ": 836,
      "çģ": 837,
      "çł": 838,
      "ç¨³": 839,
      "çªĦ": 840,
      "ç²Ĵ": 841,
      "çº¿": 842,
      "è¡Į": 843,
      "éģ": 844,
      "éĹ": 845,
      "éķ¿": 846,
      "éķ¿å°¾": 847,
      "ĠéŁ³èī": 848,
      "Ġop": 849,
      "Ġä¾§éĵ": 850,
      "Ģļ": 851,
      "ģåĻ¨": 852,
      "ĥĮæĻ¯": 853,
      "Ħı": 854,
      "ĩı": 855,
      "Ĭæ»ĳ": 856,
      "ĭæĦŁ": 857,
      "İäº": 858,
      "ıĺåĮĸ": 859,
      "ĳä¸": 860,
      "ĳä¸ĭæ»ĳéŁ³": 861,
      "ĵæĿ¥": 862,
      "Ĺå·´çĲ´": 863,
      "Ĺç²Ĵ": 864,
      "ĺİäº": 865,
      "Ļäº": 866,
      "ļå®ŀ": 867,
      "ľç®¡": 868,
      "ŁŃ": 869,
      "leas": 870,
      "Ġå£°": 871,
      "Ġå°ı": 872,
      "ĠåºĦ": 873,
      "Ġåĩı": 874,
      "Ġç¢İ": 875,
      "ĠçĪµå£«": 876,
      "Ġç¾½ç®¡": 877,
      "Ġæ»ļ": 878,
      "Ġæĺİäº": 879,
      "çļĦæ³¢": 880,
      "çļĦé¼ĵ": 881,
      "çļĦæ¸ħæ¾Ī": 882,
      "çļĦè®²è¯Ŀ": 883,
      "çļĦfx": 884,
      "éŁ³é«ĺ": 885,
      "Ġåİļå®ŀ": 886,
      "æĦŁçļĦpad": 887,
      "Łå£°bass": 888,
      "ä¸¥çļĦ": 889,
      "Ġé©¬": 890,
      "ĠéĢļ": 891,
      "ĠèĥĮæĻ¯": 892,
      "ĠèĦı": 893,
      "ĵå¨ĵ": 894,
      "ĠåĲĳä¸": 895,
      "å°ĳ": 896,
      "ä½İé¢ĳ": 897,
      "²åıĺåĮĸ": 898,
      "é¢Ĺç²Ĵ": 899,
      "åĪĨéŁ³ç¬¦lead": 900,
      "åĪĨéŁ³ç¬¦å°ı": 901,
      "éĵºåºķ": 902,
      "Ġå¼łå¼Ģ": 903,
      "Ġå¼¦ä¹Ĳ": 904,
      "Ġris": 905,
      "ĠåĲĪå¥ı": 906,
      "æ°Ķå£°": 907,
      "å¿«éĢŁæ»¤æ³¢": 908,
      "Ġwah": 909,
      "Ġwurlit": 910,
      "Ġè¿ĩéĹ": 911,
      "åıĻäº": 912,
      "æīĵ": 913,
      "ä¸ĭè¡Į": 914,
      "Ġæ¸ħæ¾Ī": 915,
      "æŀĹå·´çĲ´": 916,
      "Ġä½İéŁ³": 917,
      "åĲĳä¸ĭæ»ĳéŁ³": 918,
      "é«ĺçļĦfx": 919,
      "Ġå¹²åĩĢçļĦæ³¢": 920,
      "releas": 921,
      "Ġnylon": 922,
      "ĵåĩ»æĦŁ": 923,
      "èĥĮæĻ¯å£°": 924,
      "èĥĮæĻ¯éŁ³": 925,
      "ĠgarageæĦŁ": 926,
      "Ġå¤©ç©º": 927,
      "Ġåİĭç¼©éĴ¢çĲ´": 928,
      "çİ»çĴĥè´¨æĦŁ": 929,
      "future": 930,
      "å¨ĵå¨ĵ": 931,
      "æĿ¡": 932,
      "Ġæīĵåĩ»æĦŁ": 933,
      "Ġæķ²åĩ»æĦŁ": 934,
      "Ġéģ¥è¿ľçļĦ": 935,
      "ä½İéĢļæ»¤æ³¢": 936,
      "æīĵåĩ»ä¹Ĳ": 937,
      "Ġä¸ĬåįĩçļĦéŁ³æķĪ": 938,
      "Ġä¸ĬåįĩçļĦçªĦ": 939,
      "åİŁå£°bass": 940,
      "ç©ºæ°Ķå£°": 941,
      "éĶ®çĲ´": 942,
      "çĲ¶éŁ³ä¸ĭè¡Į": 943,
      "Ġç©ºæ°ĶæĦŁ": 944,
      "Ġç©ºçģ": 945,
      "ä¸ŃçļĦæ¸ħæ¾Ī": 946,
      "ä¸Ńä½İé¢ĳ": 947,
      "Ġéĵºåºķ": 948,
      "Ġéĵľç®¡": 949,
      "æ°ĽåĽ´éŁ³èī²": 950,
      "æľ¨çĲ´": 951,
      "æľ¨åĲīä»ĸ": 952,
      "Ġåįĩé«ĺçļĦfx": 953,
      "ä½İæ²īçļĦ": 954,
      "éĢŁçļĦå¾ªçİ¯": 955,
      "è°Ĳæ³¢å°ĳ": 956,
      "color": 957,
      "riddim": 958,
      "¾åİĭç¼©": 959,
      "ãĢĤ": 960,
      "åĵ¼åĶ±": 961,
      "å®ļçº¿": 962,
      "çłģåĻ¨": 963,
      "ç¨³å®ļçº¿": 964,
      "éģĵæĿ¥": 965,
      "éķ¿releas": 966,
      "ĠéŁ³èī²åıĺåĮĸ": 967,
      "Ġopen": 968,
      "Ġä¾§éĵ¾åİĭç¼©": 969,
      "Ĭæ»ĳéŁ³": 970,
      "ŁŃä¿ĥ": 971,
      "Ġå£°çłģåĻ¨": 972,
      "Ġå°ıæīĵåĩ»ä¹Ĳ": 973,
      "ĠåºĦä¸¥çļĦ": 974,
      "ĠåĩıéĢŁçļĦå¾ªçİ¯": 975,
      "Ġç¢İå°¾": 976,
      "Ġç¾½ç®¡éĶ®çĲ´": 977,
      "Ġæ»ļå¥ı": 978,
      "Ġæĺİäº®": 979,
      "éŁ³é«ĺéĻįèĲ½": 980,
      "Ġåİļå®ŀçļĦ": 981,
      "Ġé©¬æŀĹå·´çĲ´": 982,
      "ĠéĢļé¼ĵ": 983,
      "ĠèĦıçļĦ": 984,
      "ĠåĲĳä¸Ĭæ»ĳéŁ³": 985,
      "é¢Ĺç²ĴæĦŁ": 986,
      "åĪĨéŁ³ç¬¦å°ıæīĵ": 987,
      "ĠwahæĦŁçļĦpad": 988,
      "Ġwurlitzer": 989,
      "Ġè¿ĩéĹ¨": 990,
      "åıĻäºĭæĦŁ": 991,
      "Ġæ¸ħæ¾ĪçļĦpluck": 992,
      "Ġå¹²åĩĢçļĦæ³¢å½¢": 993,
      "Ġå¤©ç©ºä¸ŃçļĦæ¸ħæ¾Ī": 994,
      "å¨ĵå¨ĵéģĵæĿ¥": 995,
      "Ġä¸ĬåįĩçļĦçªĦå¸¦åĻªå£°": 996,
      "Ġç©ºçģµ": 997,
      "ĠéĵºåºķéŁ³èī²": 998,
      "ç¨³å®ļçº¿æĿ¡": 999,
      "éķ¿release": 1000,
      "ĠåĩıéĢŁçļĦå¾ªçİ¯çĲ¶éŁ³": 1001,
      "Ġå¤©ç©ºä¸ŃçļĦæ¸ħæ¾Īpluck": 1002,
      "fi": 1003,
      "gro": 1004,
      "il": 1005,
      "ide": 1006,
      "ier": 1007,
      "nap": 1008,
      "pçļĦé¼ĵ": 1009,
      "su": 1010,
      "te": 1011,
      "uil": 1012,
      "upçļĦé¼ĵ": 1013,
      "wl": 1014,
      "wn": 1015,
      "¢ĥ": 1016,
      "ªæĿ¥": 1017,
      "®ç": 1018,
      "½åĻ": 1019,
      "å¥³å£°": 1020,
      "åĴĮå£°": 1021,
      "å¢ĥ": 1022,
      "æŁĶè½¯": 1023,
      "çĻ": 1024,
      "çŁŃä¿ĥ": 1025,
      "éĿ": 1026,
      "éģ¥è¿ľ": 1027,
      "ĠéŁ³æķĪ": 1028,
      "Ġä¸ĭæ»ĳ": 1029,
      "ĠéŁ³éĩı": 1030,
      "ĠupçļĦé¼ĵ": 1031,
      "Ĭł": 1032,
      "ĳéŁ³æķĪ": 1033,
      "ĸéĶ": 1034,
      "ĺå£°": 1035,
      "ĺå½¢": 1036,
      "Ļªå£°": 1037,
      "Ľĺå£°": 1038,
      "łè¿": 1039,
      "ĠåĬł": 1040,
      "ĠåĻªå£°": 1041,
      "ĠçŁŃä¿ĥ": 1042,
      "çļĦå°¾éŁ³": 1043,
      "Ġsnap": 1044,
      "Ġå¥³å£°æŁĶåĴĮ": 1045,
      "Ġå¥³å£°è®²è¯Ŀ": 1046,
      "Ġå¥³å£°åĴĮå£°": 1047,
      "ä¸Ĭåįĩ": 1048,
      "Ġé«ĺ": 1049,
      "å°ĸéĶ": 1050,
      "hite": 1051,
      "ä½İéŁ³": 1052,
      "ä½İè¯": 1053,
      "²åĩ»çİ»çĴĥ": 1054,
      "å¼łå¼Ģ": 1055,
      "Ġride": 1056,
      "ĠçĶ·å£°ä½İè¯": 1057,
      "ong": 1058,
      "Ġwhite": 1059,
      "Ġæ··åĵįçļĦå°¾éŁ³": 1060,
      "æķ²åĩ»çİ»çĴĥ": 1061,
      "Ġåıĺå½¢": 1062,
      "åıįè½¬": 1063,
      "åıĺåĮĸ": 1064,
      "Ġbuil": 1065,
      "Ġleadbass": 1066,
      "ĠæľªæĿ¥": 1067,
      "Ġä½İéĢļ": 1068,
      "ĠæŁĶåĴĮçļĦè®²è¯Ŀ": 1069,
      "éĢļé¼ĵ": 1070,
      "Ġdown": 1071,
      "Ġsubbassä¸ĭæ»ĳ": 1072,
      "Ġåıįè½¬éĴ¢çĲ´": 1073,
      "ç»Ħ": 1074,
      "éĶ¯é½¿æ³¢": 1075,
      "Ġlong": 1076,
      "ĠéĶ®ç": 1077,
      "Ġorgançİ¯": 1078,
      "ĠåįĩéĻį": 1079,
      "éĢŁçļĦéĿ": 1080,
      "è°Ĳæ³¢ä¸°å¯Į": 1081,
      "éŁ³éĩıåĮħç»ľ": 1082,
      "éŁ³éĩıåıĺåĮĸ": 1083,
      "Ġriser": 1084,
      "Ġrisier": 1085,
      "Ġæ»ļå¥ıçļĦé¼ĵ": 1086,
      "Ġåİļå®ŀçļĦsu": 1087,
      "Ġåİļå®ŀçļĦä½İéŁ³": 1088,
      "fill": 1089,
      "growl": 1090,
      "½åĻª": 1091,
      "å¢ĥåĻªå£°": 1092,
      "çĻ½åĻª": 1093,
      "ĠéŁ³éĩıä¸Ĭåįĩ": 1094,
      "ĠupçļĦé¼ĵç»Ħ": 1095,
      "łè¿ĳéŁ³æķĪ": 1096,
      "ĠåĬłéĢŁçļĦéĿ": 1097,
      "Ġå¥³å£°æŁĶåĴĮçļĦè®²è¯Ŀ": 1098,
      "Ġé«ĺé¢ĳ": 1099,
      "å°ĸéĶĲ": 1100,
      "ĠçĶ·å£°ä½İè¯Ń": 1101,
      "Ġbuild": 1102,
      "ĠæľªæĿ¥æĦŁ": 1103,
      "Ġä½İéĢļéĻįèĲ½": 1104,
      "ĠæŁĶåĴĮçļĦè®²è¯Ŀå¥³å£°": 1105,
      "ĠéĶ®çĽĺå£°": 1106,
      "Ġorgançİ¯å¢ĥåĻªå£°": 1107,
      "Ġåİļå®ŀçļĦsupersaw": 1108,
      "ĠåĬłéĢŁçļĦéĿłè¿ĳéŁ³æķĪ": 1109
    },
    "merges": [
      "Ġ <",
      "o s",
      "l e",
      "r o",
      "b os",
      "e os",
      "ro le",
      "i n",
      "s t",
      "in st",
      "d e",
      "s c",
      "de sc",
      "Ġ c",
      "Ġ å",
      "o r",
      "ç Ĳ",
      "çĲ ´",
      "¼ Į",
      "ï ¼Į",
      "h or",
      "hor d",
      "Ġc hord",
      "¢ çĲ´",
      "é Ĵ",
      "éĴ ¢çĲ´",
      "å £",
      "å£ °",
      "e l",
      "d y",
      "m el",
      "o dy",
      "Ġ mel",
      "Ġmel ody",
      "c k",
      "Ġ éĴ¢çĲ´",
      "b a",
      "s s",
      "ba ss",
      "Ġ ç",
      "Ġ æ",
      "Ġ p",
      "Ġ bass",
      "Ķ µ",
      "i ck",
      "e r",
      "ç ļ",
      "çļ Ħ",
      "k ick",
      "Ġ s",
      "¥ ³",
      "Ķ å",
      "¥³ å£°",
      "Ġå ¥³å£°",
      "é Ł",
      "éŁ ³",
      "Ġç Ķµ",
      "Ġ kick",
      "er c",
      "a r",
      "æ Ħ",
      "Ġå İ",
      "æĦ Ł",
      "l u",
      "Ķ ±",
      "lu ck",
      "ĠçĶµ éĴ¢çĲ´",
      "¼ Ķå",
      "æ ¼Ķå",
      "Ł å£°",
      "Ġp erc",
      "æ¼Ķå Ķ±",
      "Ġåİ Łå£°",
      "ä ¸",
      "Ġå¥³å£° æ¼ĶåĶ±",
      "n ar",
      "nar e",
      "a d",
      "Ġp luck",
      "Ġ é",
      "a t",
      "Ġ è",
      "Ġ f",
      "ĵ å",
      "Ġs nare",
      "Ġå Ĳ",
      "å Ī",
      "é Ģ",
      "çļĦ p",
      "le ad",
      "å °",
      "è ½",
      "Ń Ĳ",
      "åĪ Ĩ",
      "h i",
      "· å",
      "Ġf x",
      "a p",
      "h at",
      "½ İ",
      "ä ½İ",
      "ç İ",
      "Ġ hi",
      "Ġhi hat",
      "® ŀ",
      "å Ĭ",
      "² å",
      "· ·å",
      "å Ľ",
      "ĵ į",
      "éĢ Ł",
      "··å ĵį",
      "¬ ¦",
      "³ ¢",
      "» ĸ",
      "ä »ĸ",
      "æ ³¢",
      "ç ¼",
      "ç ¬¦",
      "é ¢",
      "ī ä»ĸ",
      "ĭ ¥",
      "éŁ³ ç¬¦",
      "åĪĨ éŁ³ç¬¦",
      "l ap",
      "o m",
      "t h",
      "å ŃĲ",
      "æ °",
      "Ĵ Į",
      "Ġs u",
      "²å ĩ",
      "a w",
      "« éĢŁ",
      "¿ «éĢŁ",
      "å ¼",
      "æ Ī",
      "é ĵ",
      "Ġå ¼",
      "» ĵå",
      "ç Ķµ",
      "Ł Ķ",
      "Ġç »ĵå",
      "Ġæ ¸",
      "Ġç»ĵå ®ŀ",
      "· å£°",
      "å Ļ",
      "è ĭ¥",
      "Ġ r",
      "Ķ ·å£°",
      "Ľ åĽ",
      "Ġç Ķ·å£°",
      "Ġè ¿",
      "çļĦp luck",
      "å° ¾",
      "åĬ Ľ",
      "ĽåĽ ´",
      "1 6",
      "b o",
      "o n",
      "Ġ g",
      "Ł Ķå",
      "Ġc om",
      "ĠåĲ Ī",
      "é¢ ĳ",
      "æ° Ķ",
      "æĪ Ĳ",
      "ŁĶå ĴĮ",
      "Ġcom bo",
      "p er",
      "s aw",
      "° æĦŁ",
      "¹ æ",
      "¼ ĵ",
      "ä º",
      "å ¿«éĢŁ",
      "æ Ļ",
      "é ¼ĵ",
      "Ġ w",
      "Ġæ ··åĵį",
      "ĠåĲ īä»ĸ",
      "å¼ ¦",
      "Ġå¼ ¹æ",
      "per saw",
      "h y",
      "i t",
      "¹ ²åĩ",
      "æ ¸",
      "æ »",
      "æ ķ",
      "Ġ t",
      "Ġå ı",
      "th m",
      "Ġsu persaw",
      "Ġr hy",
      "Ġè¿ ĩ",
      "æ°Ķ æĦŁ",
      "¹²åĩ Ģ",
      "Ġrhy thm",
      "a n",
      "c or",
      "i on",
      "s nare",
      "° ĽåĽ´",
      "¹ Ĳ",
      "¹ ç¼",
      "ä ¹Ĳ",
      "å ı",
      "æ ī",
      "ç Ĥ",
      "è ¿",
      "è ĥ",
      "Ġ b",
      "Ġ de",
      "Ġ lead",
      "Ġ 16",
      "ı Ĳ",
      "ķ ¿",
      "Ġæ ľ",
      "Ġæ °ĽåĽ´",
      "éŁ³ æķ",
      "ä¸ ĭ",
      "at ion",
      "Ġæ¸ ħ",
      "åĻ ¨",
      "cor ation",
      "¹ç¼ Ģ",
      "çĤ ¹ç¼Ģ",
      "Ġde coration",
      "ıĲ çĲ´",
      "éŁ³æķ Ī",
      "a l",
      "m ba",
      "y mba",
      "¢ °æĦŁ",
      "© æ",
      "« ĺ",
      "º æ",
      "» ç",
      "½ çĶµ",
      "¾ Ī",
      "æ ľ",
      "æ ŀ",
      "é ļ",
      "Ġ ä½İ",
      "ĥ éĵ",
      "ĥ æ°ĶæĦŁ",
      "ħ ĥæ°ĶæĦŁ",
      "Į æĻ",
      "į ĩ",
      "Ĳ èĭ¥",
      "ĳ åĬĽ",
      "Ġc ymba",
      "è½ ½çĶµ",
      "çİ °",
      "çİ »ç",
      "Ġè¿ĩ è½½çĶµ",
      "ºæ ¢°æĦŁ",
      "éļ Ĳèĭ¥",
      "ĮæĻ ¯",
      "Ġcymba l",
      "çİ»ç Ĵ",
      "éļĲèĭ¥ çİ°",
      "l it",
      "© º",
      "º å£°",
      "å Ĳ",
      "è Ħ",
      "é «ĺ",
      "Ġ ä¸",
      "ĭ ç¼",
      "Ġc lap",
      "Ġå ¹²åĩĢ",
      "Ġæ ĸ",
      "Ġæ ŁĶåĴĮ",
      "Ġé ¢",
      "ĠåĲĪ æĪĲ",
      "äº ºå£°",
      "ķ¿ å°¾",
      "Ġæ¸ħ èĦ",
      "ĭç¼ ©",
      "ĠåĲĪæĪĲ åĻ¨",
      "Ġæ¸ħèĦ Ĩ",
      "a g",
      "i s",
      "r e",
      "³ Ĭ",
      "¶ è",
      "¶ åŃĲ",
      "» æĦŁ",
      "å Į",
      "æ ··åĵį",
      "ç ³Ĭ",
      "é Ļ",
      "Ġ n",
      "Ģ §",
      "į è½",
      "İ ¹",
      "Ġp ad",
      "ar p",
      "ar ag",
      "ĠåİŁå£° æŀ",
      "ĵå ĩ",
      "éĢ ļ",
      "å° ı",
      "è½ ¯",
      "ŁĶ è½¯",
      "ĠçĶ·å£° æ¼ĶåĶ±",
      "Ġg arag",
      "Ġå¼¹æ Ģ§",
      "æ» ĳ",
      "Ġt ick",
      "èĥ ĮæĻ¯",
      "¶è İ¹",
      "¶åŃĲ é¼ĵ",
      "éĻ į",
      "įè½ ¬",
      "ĠåİŁå£°æŀ ¶åŃĲé¼ĵ",
      "Ġgarag e",
      "a ss",
      "b bass",
      "c h",
      "c al",
      "d o",
      "i m",
      "l l",
      "n th",
      "o cal",
      "r ass",
      "v ocal",
      "y nth",
      "¥ è¿",
      "« å¼¦",
      "® ²",
      "½ »",
      "¾ ĭ",
      "å ħĥæ°ĶæĦŁ",
      "å įĩ",
      "æ ¾Ī",
      "è ī",
      "é ĩ",
      "Ġ 8",
      "Ġ do",
      "Ġ vocal",
      "ģ ¥è¿",
      "Ĭ åįĩ",
      "İ å¼¦",
      "Ĺ ĵå",
      "le an",
      "Ġå ¤",
      "Ġå ¾ĭ",
      "Ġå Ĺĵå",
      "ĠéĴ¢çĲ´ ä¸",
      "Ġæ ŁĶè½¯",
      "Ġs ynth",
      "éŁ³ èī",
      "ĠçĶµ bass",
      "Ġåİ ĭç¼©",
      "Ġé ķ¿å°¾",
      "Ġè ½»",
      "çļĦp erc",
      "çļĦp ad",
      "ŃĲ åı",
      "åĬ ¨",
      "Ġsu bbass",
      "çĶµ åŃĲ",
      "Ġg lit",
      "Ġåı įè½¬",
      "Ġb rass",
      "Ġä½İ é¢ĳ",
      "ĥéĵ Ľ",
      "çİ»çĴ ĥ",
      "åĲ īä»ĸ",
      "ģ¥è¿ ľ",
      "İå¼¦ ä¹Ĳ",
      "Ġå¾ĭ åĬ¨",
      "ĠåĹĵå ŃĲåı",
      "ĠéĴ¢çĲ´ä¸ İå¼¦ä¹Ĳ",
      "Ġglit ch",
      "ĠåĹĵåŃĲåı ĳåĬĽ",
      "b le",
      "c lap",
      "f u",
      "i d",
      "o le",
      "o is",
      "t u",
      "u ble",
      "¢ İ",
      "¤ éŁ³",
      "§ £",
      "¨ æĦŁ",
      "´ ¨æĦŁ",
      "µ å£",
      "¹ æ³¢",
      "å ¨",
      "å Ķ±",
      "å ®ŀ",
      "æ Ŀ",
      "æ ŁĶåĴĮ",
      "æ ıĲçĲ´",
      "ç »",
      "è §£",
      "è ´¨æĦŁ",
      "Ġ äººå£°",
      "Ģ åĽ",
      "Ī µå£",
      "ī åĬĽ",
      "ĭ ¨",
      "ķ ²åĩ",
      "ro ll",
      "éĴ¢çĲ´ åĪĨ",
      "Ġæ ī",
      "Ġæ ıĲçĲ´",
      "Ġæ ķ²åĩ",
      "ä¸ ĢåĽ",
      "Ġé ģ¥è¿ľ",
      "Ġf ole",
      "ä½İ éĢļ",
      "Ġæ¸ ©æ",
      "èĭ¥ éļĲèĭ¥çİ°",
      "æĪĲ ä¸ĢåĽ",
      "Ġå¼¹æ ĭ¨",
      "æī ĵåĩ",
      "Ġæľ īåĬĽ",
      "Ġæ°ĽåĽ´ lead",
      "ä¸ĭ æ»ĳ",
      "æľ ºæ¢°æĦŁ",
      "Ġè¿ĩè½½çĶµ éĴ¢çĲ´",
      "Ġä¸ Ĭåįĩ",
      "Ġæĸ ¹æ³¢",
      "Ġé¢ ¤éŁ³",
      "Ġæ¸ħèĦĨ çļĦpluck",
      "ç³Ĭ æĪĲä¸ĢåĽ",
      "Ġn ois",
      "å°ı æıĲçĲ´",
      "Ġdo uble",
      "Ġåıįè½¬ éŁ³æķĪ",
      "tu re",
      "Īµå£ «",
      "éĴ¢çĲ´åĪĨ è§£",
      "Ġfole y",
      "Ġæ¸©æ ŁĶ",
      "ĠæľīåĬĽ çļĦ",
      "Ġä¸Ĭåįĩ çļĦ",
      "Ġæĸ¹æ³¢ lead",
      "ç³ĬæĪĲä¸ĢåĽ ¢",
      "Ġnois e",
      "Ġdouble bass",
      "a c",
      "c hord",
      "e t",
      "f t",
      "g an",
      "o ft",
      "p ac",
      "¤ éĴ¢çĲ´",
      "¤ æ³¢",
      "¥ ı",
      "ª å£°",
      "® ¡",
      "¯ é",
      "¯ Į",
      "° å",
      "± »",
      "± ç",
      "¶ éŁ³",
      "º å",
      "º ķ",
      "» çİ»çĴĥ",
      "½ ¿",
      "å İ",
      "å ¥ı",
      "ç ©º",
      "ç ®¡",
      "è ¯",
      "é Ķ",
      "Ġ l",
      "Ġ or",
      "Ġ im",
      "Ġ roll",
      "ħ æ¾Ī",
      "ħ ç»",
      "Ļ ¶èİ¹",
      "ļ ĸ",
      "ľ Ł",
      "Ġå ¿«éĢŁ",
      "çĲ ¶éŁ³",
      "Ġç ©º",
      "Ġç ±»",
      "Ġæ Ļ¶èİ¹",
      "Ġs lap",
      "Ġs aw",
      "Ġs oft",
      "ĠçĶµ åŃĲ",
      "ä¸ Ń",
      "ä¸ °å",
      "Ġé ĵ",
      "Ġé Ķ",
      "Ġè ĭ¥",
      "æ° ĽåĽ´",
      "ĴĮ å£°",
      "å°¾ éŁ³",
      "Ġw et",
      "æ¸ ©æ",
      "æ¸ ħæ¾Ī",
      "æ» ¤æ³¢",
      "Ġt om",
      "Ġåı ¤éĴ¢çĲ´",
      "Ġæľ ºæ¢°æĦŁ",
      "æľ ¨",
      "Ġè¿ĩè½½çĶµ åĲīä»ĸ",
      "é«ĺ é¢ĳ",
      "ĠæŁĶåĴĮ çļĦpad",
      "åĮ ħç»",
      "Ġå¤ ±ç",
      "éŁ³èī ²",
      "Ġåİĭç¼© æĦŁ",
      "pac t",
      "¯é ½¿",
      "ºå ºķ",
      "Ġor gan",
      "Ġim pact",
      "ľŁ kick",
      "Ġç±» snare",
      "ĠæĻ¶èİ¹ çļĦpluck",
      "Ġslap bass",
      "ä¸°å ¯Į",
      "Ġèĭ¥ éļĲèĭ¥çİ°",
      "æ¸©æ ļĸ",
      "åĮħç» ľ",
      "Ġå¤±ç ľŁkick",
      "¯é½¿ æ³¢",
      "b it",
      "c lean",
      "h ap",
      "i q",
      "k in",
      "n k",
      "p luck",
      "u id",
      "u ture",
      "¤ §",
      "¦ å¨",
      "® µ",
      "° Ĳ",
      "² ī",
      "¸ è",
      "¸ æĪ",
      "¹ »",
      "» é¢",
      "½ ¢",
      "½ å",
      "å ¹²åĩĢ",
      "å ¤§",
      "å ½¢",
      "æ ł",
      "æ ŁĶ",
      "æ ®µ",
      "æ ²ī",
      "ç ī",
      "ç ¢İ",
      "ç Īµå£«",
      "è Ĳ",
      "è ®²",
      "è °Ĳ",
      "Ġ arp",
      "ģ å¤§",
      "ħ Ķå",
      "ĩ æł",
      "ĩ çī",
      "ı lead",
      "ı ĳåĬĽ",
      "ĳ æ®µ",
      "ĺ åĮ",
      "Ľ ŀ",
      "Ŀ ¦å¨",
      "ł å¼",
      "Ń é«ĺé¢ĳ",
      "Ġc lean",
      "Ġc hap",
      "Ġå ¾Ī",
      "Ġå ħĥæ°ĶæĦŁ",
      "Ġå įĩ",
      "Ġå ĴĮå£°",
      "Ġå Ľŀ",
      "å£° æĦŁ",
      "el l",
      "çļĦ kick",
      "çļĦ snare",
      "éŁ³ éĩ",
      "æĦŁ çļĦperc",
      "ĠåİŁå£° kick",
      "ĠåİŁå£° snare",
      "ä¸ »é¢",
      "Ġè ®²",
      "Ġf uture",
      "åĪ ĩçī",
      "·å ¹»",
      "ä½İ æ²ī",
      "çİ ¯",
      "éĢŁ çļĦ",
      "åĪĨéŁ³ç¬¦ bass",
      "éĵ ĥéĵĽ",
      "Ġç»ĵå®ŀ çļĦ",
      "åĻ ªå£°",
      "Ġè¿ ·å¹»",
      "ĠåĲĪ åĶ±",
      "å¿«éĢŁ åĮħç»ľ",
      "æĻ ¶èİ¹",
      "Ġw al",
      "ĠåĲīä»ĸ æī",
      "æ¸ ¸æĪ",
      "è¿ °æĦŁ",
      "èĥ ¸è",
      "Ġb ell",
      "ä¸ĭ éĻį",
      "ĥéĵ ĥéĵĽ",
      "çİ»çĴ ĥéĵĥéĵĽ",
      "Ġä¸ Ńé«ĺé¢ĳ",
      "Ġå¹²åĩĢ å°¾éŁ³",
      "Ġæĸ ½å",
      "Ġé¢ ĳæ®µ",
      "äººå£° åĪĩçī",
      "Ġæ¸ħèĦĨ å®ŀ",
      "éĻį èĲ",
      "éĩ ĩæł",
      "Ġsynth bass",
      "Ġè½» æŁĶ",
      "Ġè½» çļĦsnare",
      "çĶµåŃĲ æ¸¸æĪ",
      "fu nk",
      "æĿ ¥",
      "Ġäººå£° éĩĩæł",
      "Ġæī «å¼¦",
      "Ġæķ²åĩ »çİ»çĴĥ",
      "Ġéģ¥è¿ľ çļĦperc",
      "ä½İéĢļ ä¸ĭéĻį",
      "æīĵåĩ »æĦŁ",
      "ä¸ĭæ»ĳ éŁ³",
      "è¯ Ŀ",
      "Ġl iq",
      "Ġå¿«éĢŁ ä½İéĢļä¸ĭéĻį",
      "ĠéĶ ¯é½¿æ³¢",
      "kin g",
      "è®² è¯Ŀ",
      "è°Ĳ æ³¢",
      "ģå¤§ éĴ¢çĲ´",
      "ħĶå ıĳåĬĽ",
      "ĺåĮ ĸ",
      "Ŀ¦å¨ ģå¤§éĴ¢çĲ´",
      "łå¼ Ģ",
      "Ġå¾Ī ç¢İ",
      "ĠåĽŀ å£°æĦŁ",
      "éŁ³éĩ ı",
      "ä¸»é¢ ĺ",
      "Ġè®² è¿°æĦŁ",
      "Ġè¿·å¹» çļĦpluck",
      "Ġwal king",
      "ĠåĲīä»ĸæī «å¼¦",
      "èĥ¸è ħĶåıĳåĬĽ",
      "çİ»çĴĥéĵĥéĵĽ è´¨æĦŁ",
      "Ġæĸ½å Ŀ¦å¨ģå¤§éĴ¢çĲ´",
      "Ġé¢ĳæ®µ ä¸°å¯Į",
      "äººå£°åĪĩçī ĩ",
      "Ġæ¸ħèĦĨå®ŀ æĦŁçļĦperc",
      "éĻįèĲ ½",
      "Ġè½»æŁĶ çļĦkick",
      "çĶµåŃĲæ¸¸æĪ ılead",
      "Ġäººå£°éĩĩæł ·",
      "Ġliq uid",
      "a h",
      "a s",
      "c o",
      "d im",
      "e n",
      "f x",
      "l or",
      "l on",
      "o p",
      "p erc",
      "r lit",
      "r id",
      "u rlit",
      "y lon",
      "z er",
      "¡ Į",
      "¡ ç³Ĭ",
      "£ °",
      "¥ çļĦ",
      "¦ ä¹Ĳ",
      "¦ åĻªå£°",
      "§ éĵ",
      "¨ ³",
      "¨ ĵ",
      "¨ ¡ç³Ĭ",
      "© ¬",
      "© ç©º",
      "ª Ħ",
      "ª çİ¯",
      "® ļ",
      "® çĲ´",
      "° ı",
      "² Ĵ",
      "´ çĲ´",
      "· ´çĲ´",
      "¸ ¦åĻªå£°",
      "º ¿",
      "º Ħ",
      "» ļ",
      "» ä¹Ĳ",
      "¼ åĶ±",
      "½ ç®¡",
      "¾ åİ",
      "¾ §éĵ",
      "¾ ªçİ¯",
      "¾ ½ç®¡",
      "¿ ĥ",
      "ã Ģ",
      "ä ¾§éĵ",
      "ä ¿ĥ",
      "å ĵ",
      "å ®ļ",
      "å ·´çĲ´",
      "å ¸¦åĻªå£°",
      "å ¾ªçİ¯",
      "æ ¨¡ç³Ĭ",
      "ç ģ",
      "ç ł",
      "ç ¨³",
      "ç ªĦ",
      "ç ²Ĵ",
      "ç º¿",
      "è ¡Į",
      "é ģ",
      "é Ĺ",
      "é ķ¿",
      "é ķ¿å°¾",
      "Ġ éŁ³èī",
      "Ġ op",
      "Ġ ä¾§éĵ",
      "Ģ ļ",
      "ģ åĻ¨",
      "ĥ ĮæĻ¯",
      "Ħ ı",
      "ĩ ı",
      "Ĭ æ»ĳ",
      "ĭ æĦŁ",
      "İ äº",
      "ı ĺåĮĸ",
      "ĳ ä¸",
      "ĳ ä¸ĭæ»ĳéŁ³",
      "ĵ æĿ¥",
      "Ĺ å·´çĲ´",
      "Ĺ ç²Ĵ",
      "ĺ İäº",
      "Ļ äº",
      "ļ å®ŀ",
      "ľ ç®¡",
      "Ł Ń",
      "le as",
      "Ġå £°",
      "Ġå °ı",
      "Ġå ºĦ",
      "Ġå ĩı",
      "Ġç ¢İ",
      "Ġç Īµå£«",
      "Ġç ¾½ç®¡",
      "Ġæ »ļ",
      "Ġæ ĺİäº",
      "çļĦ æ³¢",
      "çļĦ é¼ĵ",
      "çļĦ æ¸ħæ¾Ī",
      "çļĦ è®²è¯Ŀ",
      "çļĦ fx",
      "éŁ³ é«ĺ",
      "Ġåİ ļå®ŀ",
      "æĦŁ çļĦpad",
      "Łå£° bass",
      "ä¸ ¥çļĦ",
      "Ġé ©¬",
      "Ġé Ģļ",
      "Ġè ĥĮæĻ¯",
      "Ġè Ħı",
      "ĵå ¨ĵ",
      "ĠåĲ ĳä¸",
      "å° ĳ",
      "ä½İ é¢ĳ",
      "²å ıĺåĮĸ",
      "é¢ Ĺç²Ĵ",
      "åĪĨéŁ³ç¬¦ lead",
      "åĪĨéŁ³ç¬¦ å°ı",
      "éĵ ºåºķ",
      "Ġå¼ łå¼Ģ",
      "Ġå¼ ¦ä¹Ĳ",
      "Ġr is",
      "ĠåĲĪ å¥ı",
      "æ°Ķ å£°",
      "å¿«éĢŁ æ»¤æ³¢",
      "Ġw ah",
      "Ġw urlit",
      "Ġè¿ĩ éĹ",
      "åı Ļäº",
      "æī ĵ",
      "ä¸ĭ è¡Į",
      "Ġæ¸ħ æ¾Ī",
      "æŀ Ĺå·´çĲ´",
      "Ġä½İ éŁ³",
      "åĲ ĳä¸ĭæ»ĳéŁ³",
      "é«ĺ çļĦfx",
      "Ġå¹²åĩĢ çļĦæ³¢",
      "re leas",
      "Ġn ylon",
      "ĵåĩ »æĦŁ",
      "èĥĮæĻ¯ å£°",
      "èĥĮæĻ¯ éŁ³",
      "Ġgarage æĦŁ",
      "Ġå¤ ©ç©º",
      "Ġåİĭç¼© éĴ¢çĲ´",
      "çİ»çĴĥ è´¨æĦŁ",
      "fu ture",
      "å¨ ĵå¨ĵ",
      "æĿ ¡",
      "Ġæī ĵåĩ»æĦŁ",
      "Ġæķ²åĩ »æĦŁ",
      "Ġéģ¥è¿ľ çļĦ",
      "ä½İéĢļ æ»¤æ³¢",
      "æīĵåĩ »ä¹Ĳ",
      "Ġä¸ĬåįĩçļĦ éŁ³æķĪ",
      "Ġä¸ĬåįĩçļĦ çªĦ",
      "åİ Łå£°bass",
      "ç©º æ°Ķå£°",
      "éĶ ®çĲ´",
      "çĲ¶éŁ³ ä¸ĭè¡Į",
      "Ġç©º æ°ĶæĦŁ",
      "Ġç©º çģ",
      "ä¸Ń çļĦæ¸ħæ¾Ī",
      "ä¸Ń ä½İé¢ĳ",
      "Ġéĵ ºåºķ",
      "Ġéĵ ľç®¡",
      "æ°ĽåĽ´ éŁ³èī²",
      "æľ¨ çĲ´",
      "æľ¨ åĲīä»ĸ",
      "Ġåįĩ é«ĺçļĦfx",
      "ä½İæ²ī çļĦ",
      "éĢŁçļĦ å¾ªçİ¯",
      "è°Ĳæ³¢ å°ĳ",
      "co lor",
      "rid dim",
      "¾åİ ĭç¼©",
      "ãĢ Ĥ",
      "åĵ ¼åĶ±",
      "å®ļ çº¿",
      "çł ģåĻ¨",
      "ç¨³ å®ļçº¿",
      "éģ ĵæĿ¥",
      "éķ¿ releas",
      "ĠéŁ³èī ²åıĺåĮĸ",
      "Ġop en",
      "Ġä¾§éĵ ¾åİĭç¼©",
      "Ĭæ»ĳ éŁ³",
      "ŁŃ ä¿ĥ",
      "Ġå£° çłģåĻ¨",
      "Ġå°ı æīĵåĩ»ä¹Ĳ",
      "ĠåºĦ ä¸¥çļĦ",
      "Ġåĩı éĢŁçļĦå¾ªçİ¯",
      "Ġç¢İ å°¾",
      "Ġç¾½ç®¡ éĶ®çĲ´",
      "Ġæ»ļ å¥ı",
      "Ġæĺİäº ®",
      "éŁ³é«ĺ éĻįèĲ½",
      "Ġåİļå®ŀ çļĦ",
      "Ġé©¬ æŀĹå·´çĲ´",
      "ĠéĢļ é¼ĵ",
      "ĠèĦı çļĦ",
      "ĠåĲĳä¸ Ĭæ»ĳéŁ³",
      "é¢Ĺç²Ĵ æĦŁ",
      "åĪĨéŁ³ç¬¦å°ı æīĵ",
      "Ġwah æĦŁçļĦpad",
      "Ġwurlit zer",
      "Ġè¿ĩéĹ ¨",
      "åıĻäº ĭæĦŁ",
      "Ġæ¸ħæ¾Ī çļĦpluck",
      "Ġå¹²åĩĢçļĦæ³¢ å½¢",
      "Ġå¤©ç©º ä¸ŃçļĦæ¸ħæ¾Ī",
      "å¨ĵå¨ĵ éģĵæĿ¥",
      "Ġä¸ĬåįĩçļĦçªĦ å¸¦åĻªå£°",
      "Ġç©ºçģ µ",
      "Ġéĵºåºķ éŁ³èī²",
      "ç¨³å®ļçº¿ æĿ¡",
      "éķ¿releas e",
      "ĠåĩıéĢŁçļĦå¾ªçİ¯ çĲ¶éŁ³",
      "Ġå¤©ç©ºä¸ŃçļĦæ¸ħæ¾Ī pluck",
      "f i",
      "g ro",
      "i l",
      "i de",
      "i er",
      "n ap",
      "p çļĦé¼ĵ",
      "s u",
      "t e",
      "u il",
      "u pçļĦé¼ĵ",
      "w l",
      "w n",
      "¢ ĥ",
      "ª æĿ¥",
      "® ç",
      "½ åĻ",
      "å ¥³å£°",
      "å ĴĮå£°",
      "å ¢ĥ",
      "æ ŁĶè½¯",
      "ç Ļ",
      "ç ŁŃä¿ĥ",
      "é Ŀ",
      "é ģ¥è¿ľ",
      "Ġ éŁ³æķĪ",
      "Ġ ä¸ĭæ»ĳ",
      "Ġ éŁ³éĩı",
      "Ġ upçļĦé¼ĵ",
      "Ĭ ł",
      "ĳ éŁ³æķĪ",
      "ĸ éĶ",
      "ĺ å£°",
      "ĺ å½¢",
      "Ļ ªå£°",
      "Ľ ĺå£°",
      "ł è¿",
      "Ġå Ĭł",
      "Ġå Ļªå£°",
      "Ġç ŁŃä¿ĥ",
      "çļĦ å°¾éŁ³",
      "Ġs nap",
      "Ġå¥³å£° æŁĶåĴĮ",
      "Ġå¥³å£° è®²è¯Ŀ",
      "Ġå¥³å£° åĴĮå£°",
      "ä¸ Ĭåįĩ",
      "Ġé «ĺ",
      "å° ĸéĶ",
      "hi te",
      "ä½İ éŁ³",
      "ä½İ è¯",
      "²åĩ »çİ»çĴĥ",
      "å¼ łå¼Ģ",
      "Ġr ide",
      "ĠçĶ·å£° ä½İè¯",
      "on g",
      "Ġw hite",
      "Ġæ··åĵį çļĦå°¾éŁ³",
      "æķ ²åĩ»çİ»çĴĥ",
      "Ġåı ĺå½¢",
      "åı įè½¬",
      "åı ĺåĮĸ",
      "Ġb uil",
      "Ġlead bass",
      "Ġæľ ªæĿ¥",
      "Ġä½İ éĢļ",
      "ĠæŁĶåĴĮ çļĦè®²è¯Ŀ",
      "éĢļ é¼ĵ",
      "Ġdo wn",
      "Ġsubbass ä¸ĭæ»ĳ",
      "Ġåıįè½¬ éĴ¢çĲ´",
      "ç» Ħ",
      "éĶ ¯é½¿æ³¢",
      "Ġl ong",
      "ĠéĶ ®ç",
      "Ġorgan çİ¯",
      "Ġåįĩ éĻį",
      "éĢŁçļĦ éĿ",
      "è°Ĳæ³¢ ä¸°å¯Į",
      "éŁ³éĩı åĮħç»ľ",
      "éŁ³éĩı åıĺåĮĸ",
      "Ġris er",
      "Ġris ier",
      "Ġæ»ļå¥ı çļĦé¼ĵ",
      "Ġåİļå®ŀçļĦ su",
      "Ġåİļå®ŀçļĦ ä½İéŁ³",
      "fi ll",
      "gro wl",
      "½åĻ ª",
      "å¢ĥ åĻªå£°",
      "çĻ ½åĻª",
      "ĠéŁ³éĩı ä¸Ĭåįĩ",
      "ĠupçļĦé¼ĵ ç»Ħ",
      "łè¿ ĳéŁ³æķĪ",
      "ĠåĬł éĢŁçļĦéĿ",
      "Ġå¥³å£°æŁĶåĴĮ çļĦè®²è¯Ŀ",
      "Ġé«ĺ é¢ĳ",
      "å°ĸéĶ Ĳ",
      "ĠçĶ·å£°ä½İè¯ Ń",
      "Ġbuil d",
      "ĠæľªæĿ¥ æĦŁ",
      "Ġä½İéĢļ éĻįèĲ½",
      "ĠæŁĶåĴĮçļĦè®²è¯Ŀ å¥³å£°",
      "ĠéĶ®ç Ľĺå£°",
      "Ġorgançİ¯ å¢ĥåĻªå£°",
      "Ġåİļå®ŀçļĦsu persaw",
      "ĠåĬłéĢŁçļĦéĿ łè¿ĳéŁ³æķĪ"
    ]
  }
}